01010000001100110000010111000000000000000000000000,
00011100000111110000010011000000000000000000000000,
01000100000011000000111101000000000000000000000000,
01010100000001000000011101000000000000000000000000,
00110000000000010000010101000000000000000000000000,
00110100001100010000000001000000000000000000000000,
01000100000011000000011101000000000000000000000000,
11111100000000000000000011000000000000000000000000,
11111100001111000000110001000000000000000000000000,
00110100000000110000000111000000000000000000000000,
00111100000001110000001111000000000000000000000000,
00011100000001010000110101000000000000000000000000,
01001100000111110000010001000000000000000000000000,
11000100001100000000111101000000000000000000000000,
00110100000000110000111101000000000000000000000000,
00110100000100010000010011000000000000000000000000,
11001100000000010000111101000000000000000000000000,
00011100000101000000110011000000000000000000000000,
11110000001111110000011101000000000000000000000000,
11001100001111110000110111000000000000000000000000,
11011100001100010000001101000000000000000000000000,
00001100001111110000010101000000000000000000000000,
00010100000001000000011100000000000000000000000000,
11001100000101000000001100000000000000000000000000,
01110100000111010000011101000000000000000000000000,
11110000000100010000111100000000000000000000000000,
01010000001101000000011101000000000000000000000000,
00111100000111000000000100000000000000000000000000,
11111100000001110000001100000000000000000000000000,
11110000000001010000111100000000000000000000000000,
01001100000111110000000101000000000000000000000000,
00110000000111000000000100000000000000000000000000,
