MEMORY_INITIALIZATION_RADIX=2;
MEMORY_INITIALIZATION_VECTOR=
00000000000000000000000000000000000000000000000000,
00000000000000000000000000000000000000000000000000,
11000000000000000000000000000000000000000000000000,
11000000000000000000000000000000000000000000000000,
11000000000000000000000000000000000000000000000000,
11000000000000000000000000000000000000000000000000,
00000000000000000000000000000000000000000000000000,
01000000000000000000000000000000000000000000000000,
01000000000000000000000000000000000000000000000000,
00000000000000000000000000000000000000000000000000,
11000000000000000000000000000000000000000000000000,
01000000000000000000000000000000000000000000000000,
01000000000000000000000000000000000000000000000000,
01000000000000000000000000000000000000000000000000,
01000000000000000000000000000000000000000000000000,
11000000000000000000000000000000000000000000000000,
01000000000000000000000000000000000000000000000000,
00000000000000000000000000000000000000000000000000,
11000000000000000000000000000000000000000000000000,
11000000000000000000000000000000000000000000000000,
01000000000000000000000000000000000000000000000000,
11000000000000000000000000000000000000000000000000,
11000000000000000000000000000000000000000000000000,
00000000000000000000000000000000000000000000000000,
01000000000000000000000000000000000000000000000000,
00000000000000000000000000000000000000000000000000,
01000000000000000000000000000000000000000000000000,
11000000000000000000000000000000000000000000000000,
01000000000000000000000000000000000000000000000000,
00000000000000000000000000000000000000000000000000,
01000000000000000000000000000000000000000000000000,
11000000000000000000000000000000000000000000000000;